TRT-5105-EntropyCalibration2
input_1: 3c010a14
849: 3b61ca3f
850: 3b49b375
851: 3b4e6b4e
852: 3a8611a1
853: 3b0480f5
854: 3aac26f2
855: 3aac26f2
856: 39fdab0d
857: 3b853b4d
858: 3a6b9995
859: 3b1941ab
860: 3b1c7f22
861: 3b1c7f22
862: 39792894
863: 3aff3d61
864: 3a2cc3d8
865: 3b5dbf44
866: 3b50819d
867: 3b50819d
868: 395936fe
869: 3b0e2cd5
870: 3a11e61e
871: 3b870900
872: 3a0725e2
873: 3abbf782
874: 3b97c79a
875: 3b898430
876: 3b898430
877: 39844f71
878: 3af0f5ea
879: 3a330719
880: 3b5d16c6
881: 3af83e13
882: 3af83e13
883: 38f607a9
884: 3ade43fd
885: 39a0eb22
886: 3b244ea7
887: 3b1c06de
888: 3b1c06de
889: 392e934e
890: 3ac461c4
891: 399f9c5d
892: 3b360760
893: 3a4c6945
894: 3aaf79c7
895: 3b6d2bf1
896: 3b6ff8c1
897: 3b6ff8c1
898: 39782158
899: 3b118c20
900: 39fea85b
901: 3b0eca99
902: 3af88096
903: 3af88096
904: 38e6cbb1
905: 3ab00401
906: 392f382a
907: 3b0f8858
908: 3aee98e9
909: 3aee98e9
910: 38c268ac
911: 3ac1483f
912: 39157996
913: 3b30d7d2
914: 3a1175f3
915: 3b06d602
916: 3b6b5ca3
917: 3b806731
918: 3b806731
919: 391a17ba
920: 3aca4766
921: 396371a0
922: 3af04f42
923: 3ae8284a
924: 3ae8284a
925: 38cd4e17
926: 3ab80410
927: 39120a1b
928: 3ad560cc
929: 3ab87491
930: 3ab87491
931: 38a6e4ae
932: 3a90e88e
933: 38d9725d
934: 3ac9a60e
935: 3b53083f
936: 3b7ea9ef
937: 3b7ea9ef
938: 390e096c
939: 3ad794b0
940: 3953830d
941: 3acc2f1d
942: 3ac0b8c1
943: 3ac0b8c1
944: 38b8ddf3
945: 3a6dd563
946: 3905d262
947: 3ada3ab6
948: 3aea8c7f
949: 3aea8c7f
950: 394a3c0d
951: 3a99367b
952: 38d4dedb
953: 3a9d767b
954: 3b57073b
955: 3b6384c6
956: 3b6384c6
957: 392ea5e0
958: 3acf4846
959: 39252143
960: 3abbb558
961: 3abb50be
962: 3abb50be
963: 38d02713
964: 3aba9186
965: 38db600f
966: 3abb4225
967: 3aa11725
968: 3aa11725
969: 38b128f3
970: 3a8703b0
971: 38929cbf
972: 3a8e83e6
973: 3b445560
974: 3b5644b0
975: 3b5644b0
976: 391f54d1
977: 3a9871ad
978: 390322eb
979: 3aa70704
980: 3aa41d5b
981: 3aa41d5b
982: 38941e4d
983: 3a9d983c
984: 38a585f6
985: 3a962eb4
986: 3a75a27a
987: 3a75a27a
988: 389cf1e8
989: 3a30bce7
990: 3873de64
991: 3a5b6dc3
992: 3b3d460a
993: 3b55ad02
994: 3b55ad02
995: 38d2b5c9
996: 3ab2cb8d
997: 38eb0d64
998: 3a955b26
999: 3a8cb948
1000: 3a8cb948
1001: 38906f08
1002: 3a468627
1003: 388ae49f
1004: 3a87d964
1005: 3a6956f7
1006: 3a6956f7
1007: 38a47f0a
1008: 3a3d0a18
1009: 38610f23
1010: 3a522717
1011: 3b36f88f
1012: 3b571977
1013: 3b571977
1014: 38dc1b10
1015: 3a88bbb5
1016: 390e7c27
1017: 3ab2df2c
1018: 3ab41639
1019: 3ab41639
1020: 38e4e5b1
1021: 3a575774
1022: 38ce13e7
1023: 3ac9c70f
1024: 3ac6ace0
1025: 3ac6ace0
1026: 387add31
1027: 3a113fea
1028: 388b5416
1029: 3a8dea62
1030: 3b486c0b
1031: 3b4cd684
1032: 3b4cd684
1033: 38de9112
1034: 3a9bd26d
1035: 38a7891c
1036: 3a6d9ad3
1037: 3a6cb096
1038: 3a6cb096
1039: 382baf59
1040: 3a181800
1041: 3856ef4d
1042: 3a8391ee
1043: 3a61e0cf
1044: 3a61e0cf
1045: 389294c1
1046: 3a0c7581
1047: 382ed70b
1048: 3a636850
1049: 3b320225
1050: 3b56f585
1051: 3b56f585
1052: 38f09366
1053: 3a864c9a
1054: 38c09e31
1055: 3a88768e
1056: 3a87dd46
1057: 3a87dd46
1058: 38467f20
1059: 3a2be037
1060: 386c32a5
1061: 3a8c6ed3
1062: 3a58e8eb
1063: 3a58e8eb
1064: 38b15ebf
1065: 3a163b20
1066: 3840ef10
1067: 3a3a7f11
1068: 3b31b68f
1069: 3b50dfaf
1070: 3b50dfaf
1071: 38c26031
1072: 3a571426
1073: 38bc7b59
1074: 3a98c857
1075: 3a74c776
1076: 3a74c776
1077: 386875f4
1078: 3a005b01
1079: 3882645d
1080: 3a80bf43
1081: 3a607155
1082: 3a607155
1083: 3884e2a5
1084: 39eb7db6
1085: 382c210f
1086: 3a21a033
1087: 3b3848f0
1088: 3b50d4a6
1089: 3b50d4a6
1090: 38acaf63
1091: 3a69d0ee
1092: 38a92620
1093: 3a8e2f93
1094: 3a945d27
1095: 3a945d27
1096: 38567922
1097: 39df3358
1098: 386ae33e
1099: 3a472f04
1100: 3a28478d
1101: 3a28478d
1102: 38527a6c
1103: 3980a0a3
1104: 37d4052e
1105: 39ed822b
1106: 3b46ef61
1107: 3b40e995
1108: 3b40e995
1109: 38e43a11
1110: 3a55642a
1111: 3885ec5e
1112: 3a525010
1113: 3a525010
1114: 3a525010
1115: 3837bfa4
1116: 39e254a4
1117: 38405455
1118: 3a80d59e
1119: 3a2e0a77
1120: 3a2e0a77
1121: 388c92d4
1122: 39937d9c
1123: 37f8809b
1124: 39f9838b
1125: 3b3d2e51
1126: 3b3d2e51
1127: 3b3d2e51
1128: 3901f852
1129: 3a356f68
1130: 38a9b946
1131: 3a8cdc2d
1132: 3a8bf314
1133: 3a8bf314
1134: 3882fbc9
1135: 3a0345bf
1136: 383e261a
1137: 3a535cc8
1138: 3a45198d
1139: 3a45198d
1140: 388b348f
1141: 39b5920c
1142: 37f4b879
1143: 3a2898a0
1144: 3b3e8198
1145: 3b38bd20
1146: 3b38bd20
1147: 38d40bef
1148: 3a624c83
1149: 38846a84
1150: 3a6119a8
1151: 3a3a460d
1152: 3a3a460d
1153: 38101b88
1154: 3963299f
1155: 37ffc6b9
1156: 3a11ae1e
1157: 3a0e0470
1158: 3a0e0470
1159: 382237b6
1160: 39da0aab
1161: 380ac5b1
1162: 3a1ff1f5
1163: 3b50f5b5
1164: 3b34beee
1165: 3b34beee
1166: 39161684
1167: 3a59e2f9
1168: 38744ca1
1169: 3a6b1cb1
1170: 3a1f6ac1
1171: 3a1f6ac1
1172: 37f82c95
1173: 39bb25b0
1174: 37ea15cc
1175: 3a2091c3
1176: 3a224a93
1177: 3a224a93
1178: 3808f830
1179: 39a3d6c3
1180: 381985a6
1181: 3a107046
1182: 3b31411b
1183: 3b31411b
1184: 3b31411b
1185: 38df4d9e
1186: 3a56efc2
1187: 387078d7
1188: 3a5e0541
1189: 3a2d0e8f
1190: 3a2d0e8f
1191: 3825b342
1192: 398884fc
1193: 3806dd2d
1194: 3a15510b
1195: 3a071dbb
1196: 3a071dbb
1197: 380bae49
1198: 39f70fea
1199: 3801f54c
1200: 3a110190
1201: 3b39030b
1202: 3b3fa691
1203: 3b3fa691
1204: 391f82dd
1205: 3a46a031
1206: 38d02bbd
1207: 3a9bfe26
1208: 3ab99331
1209: 3ab99331
1210: 389b92c6
1211: 39c9abcd
1212: 3856ed4c
1213: 3a2d3421
1214: 3a185094
1215: 3a185094
1216: 38299ea6
1217: 396dc4ca
1218: 38169ac2
1219: 3a0dbb05
1220: 3b331bda
1221: 3b331bda
1222: 3b331bda
1223: 391dcf1e
1224: 3af81b6b
1225: 398ed297
1226: 3b11c48d
1227: 3b04392c
1228: 3b04392c
1229: 38d486be
1230: 3a911bd0
1231: 394f256e
1232: 3b18c5da
1233: 3ad308f8
1234: 3ad308f8
1235: 38d1cc57
1236: 3ab76f0f
1237: 3906b317
1238: 3b12dd7b
1239: 3a1dcd2e
1240: 3b0a1c48
1241: 3b46d1c2
1242: 3b1ef3d0
1243: 3b1ef3d0
1244: 38b57262
1245: 3a97e0a1
1246: 396b3557
1247: 3b4289e8
1248: 3ae69f19
1249: 3ae69f19
1250: 38b2017c
1251: 3a3c913a
1252: 391152e5
1253: 3b365aed
1254: 3af1c512
1255: 3af1c512
1256: 389082e7
1257: 3a1e452a
1258: 38823ecb
1259: 3b0a4bed
1260: 3a8693a1
1261: 381de9ed
1262: 3a88efd1
1263: 3c10737b
1264: 38fcb1bb
1265: 3b333c46
1266: 3c10737b
1267: 38be058c
1268: 3b1fac75
1269: 3c10737b
1270: 389a27aa
1271: 3af69793
1272: 3c10737b
1273: 3a8693a1
1274: 37b8fae9
1275: 3c42ba85
1276: 3cced085
1278: 3c10737b
1279: 3c10737b
1280: 3b30afa1
1281: 3b72db71
1282: 3b415806
1283: 3a5928ef
1284: 3b69edd2
1285: 3b3969f2
1287: 3b3969f2
1288: 3b3969f2
1289: 3b0b7617
1290: 3c0eb361
1291: 3b1de656
1292: 3a848849
1293: 3ce2887a
1294: 3cfaa4e0
1295: 3e5384d1
output1: 3e5384d1
