TRT-5105-EntropyCalibration2
input_1: 3c010a14
849: 3c12b920
850: 3b437f0b
851: 3b269717
852: 3a50eb0d
853: 3b168cd0
854: 3b1ebe17
855: 3b1ebe17
856: 39decbd1
857: 3a8c7c97
858: 39beb826
859: 3ad7637f
860: 3ad69f9e
861: 3ad69f9e
862: 38c24873
863: 3a6d86fe
864: 39b1b85f
865: 3b0f3bd4
866: 3afc0b22
867: 3afc0b22
868: 39137d5e
869: 3a9fc13e
870: 397b1d6c
871: 3b2391d6
872: 39eba20b
873: 3a80cf87
874: 3b58aa5e
875: 3b2d18bf
876: 3b2d18bf
877: 39215045
878: 3a8bc548
879: 39345486
880: 3aae8627
881: 3aa26fbd
882: 3aa26fbd
883: 386d5f4a
884: 3a1b5c44
885: 38e3b000
886: 3abb974e
887: 3a98e003
888: 3a98e003
889: 389a1021
890: 3a11bd86
891: 3901e6fe
892: 3ad89e95
893: 39c29e91
894: 3a9f4199
895: 3af55f5e
896: 3b1ccb2c
897: 3b1ccb2c
898: 38f1a42d
899: 3a8cc09d
900: 391a8649
901: 3aa44793
902: 3a9de504
903: 3a9de504
904: 3859f1ee
905: 3a273604
906: 38a16749
907: 3a812d6e
908: 3a613138
909: 3a613138
910: 3823e756
911: 3a0d06f2
912: 38926cba
913: 3aa58b0f
914: 398f71b2
915: 3aca9438
916: 3b02821e
917: 3b02821e
918: 3b02821e
919: 388636cc
920: 3a0a11e3
921: 38888617
922: 3a3ed3a1
923: 3a3f3a13
924: 3a3f3a13
925: 380b30fa
926: 39d9eb83
927: 382f4260
928: 3a14b691
929: 3a153658
930: 3a153658
931: 380f4ae3
932: 39b8cba2
933: 38228fbc
934: 3a09fdfa
935: 3adbd78f
936: 3afc9e8c
937: 3afc9e8c
938: 3882ccb5
939: 3a111885
940: 387703c1
941: 3a24d7e1
942: 3a2a62d7
943: 3a2a62d7
944: 3809dddd
945: 39bdf917
946: 38086aa5
947: 3a015b32
948: 3a002fbd
949: 3a002fbd
950: 37e6ddc3
951: 39ac3d5f
952: 3807e227
953: 39dd4ea4
954: 3adf79b8
955: 3af2318c
956: 3af2318c
957: 3891d994
958: 3a2f374a
959: 384aa038
960: 3a1601b9
961: 3a176679
962: 3a176679
963: 37ef7c5d
964: 39bd289f
965: 37efe3a9
966: 39e33a14
967: 39f1a3d5
968: 39f1a3d5
969: 37e05a34
970: 395e3b17
971: 37c26a04
972: 39b41e52
973: 3ad4e015
974: 3af3b856
975: 3af3b856
976: 386f8774
977: 3a1e5516
978: 3818d841
979: 3a071e95
980: 3a0b66b0
981: 3a0b66b0
982: 37b6c919
983: 396a3955
984: 37ba7c87
985: 39c48c8e
986: 39bfdc46
987: 39bfdc46
988: 37b159d1
989: 391031ef
990: 378f19b0
991: 399b4e69
992: 3add73cf
993: 3af71137
994: 3af71137
995: 387e3a99
996: 3a01db1a
997: 38168493
998: 39e49607
999: 39e2d0b1
1000: 39e2d0b1
1001: 37ab61c3
1002: 39509e60
1003: 379f77d9
1004: 39add2af
1005: 39a150ea
1006: 39a150ea
1007: 37c4bd37
1008: 38dbbc4d
1009: 377a91fc
1010: 39892ea5
1011: 3abaa053
1012: 3af24432
1013: 3af24432
1014: 3867e0c1
1015: 3a2c3509
1016: 382abc88
1017: 39ebe48c
1018: 39ec607c
1019: 39ec607c
1020: 37a4a686
1021: 3920c28c
1022: 37b89493
1023: 39db0366
1024: 399d4af4
1025: 399d4af4
1026: 37bbd253
1027: 3920cca7
1028: 37d2370e
1029: 399c91a9
1030: 3abb7d18
1031: 3af11f75
1032: 3af11f75
1033: 385a92b7
1034: 3a0be651
1035: 37cf0729
1036: 39b202ee
1037: 39b0a1f1
1038: 39b0a1f1
1039: 374b0959
1040: 38f4d750
1041: 373f0855
1042: 396b1ab7
1043: 396b1ab7
1044: 396b1ab7
1045: 37876791
1046: 38a8ed08
1047: 373597a8
1048: 396fd507
1049: 3ad1aad0
1050: 3aecb4cf
1051: 3aecb4cf
1052: 385e82b9
1053: 39ce3496
1054: 37f479dc
1055: 39d87f91
1056: 39d6d258
1057: 39d6d258
1058: 379ef75c
1059: 39210723
1060: 3754c686
1061: 3992d9fa
1062: 3992d9fa
1063: 3992d9fa
1064: 37b36cac
1065: 39547c00
1066: 377c5ec5
1067: 3953b0ff
1068: 3ac86c50
1069: 3ae505e6
1070: 3ae505e6
1071: 3858650a
1072: 39dbea7b
1073: 37d4da03
1074: 39ae9689
1075: 39ac1120
1076: 39ac1120
1077: 37a5093f
1078: 38d26cdd
1079: 373dd9cd
1080: 39810613
1081: 39810613
1082: 39810613
1083: 37bd0e48
1084: 39112074
1085: 3780fb62
1086: 3970a3d2
1087: 3acc6fd6
1088: 3ae385a3
1089: 3ae385a3
1090: 3851fe7b
1091: 39abdfc2
1092: 37a04858
1093: 39c8ecdc
1094: 39c51c7e
1095: 39c51c7e
1096: 37902798
1097: 38f3607e
1098: 372a6b46
1099: 395b35a8
1100: 3952fa9d
1101: 3952fa9d
1102: 378e590c
1103: 38790eb0
1104: 36eda312
1105: 390838e2
1106: 3aa882b5
1107: 3af4c484
1108: 3af4c484
1109: 384f0b02
1110: 39ac257d
1111: 379e1ab4
1112: 39918463
1113: 398b019c
1114: 398b019c
1115: 3777d20a
1116: 388c5454
1117: 3717464b
1118: 3954b008
1119: 39417ec2
1120: 39417ec2
1121: 378cda94
1122: 38ac1665
1123: 3701ee37
1124: 39342cbc
1125: 3ac6f017
1126: 3add66ed
1127: 3add66ed
1128: 383ffd2a
1129: 39e6cc16
1130: 37c12f30
1131: 39ac7a0b
1132: 39ac7a0b
1133: 39ac7a0b
1134: 379be9c7
1135: 38cf626f
1136: 3763e58f
1137: 3978614a
1138: 39643ed0
1139: 39643ed0
1140: 379a1b77
1141: 3838859b
1142: 3730edbd
1143: 395fdf37
1144: 3ac51e87
1145: 3adb60cc
1146: 3adb60cc
1147: 38829352
1148: 39c11a2c
1149: 37a2d20c
1150: 39914b67
1151: 3988c21e
1152: 3988c21e
1153: 3767e3d0
1154: 3887275c
1155: 3702bfe9
1156: 394322c8
1157: 394322c8
1158: 394322c8
1159: 3756e805
1160: 38cab1ba
1161: 3711284e
1162: 3928417c
1163: 3abdb34e
1164: 3ad8c52e
1165: 3ad8c52e
1166: 388b47ca
1167: 39d47cc9
1168: 379f5928
1169: 3987ee6d
1170: 39871674
1171: 39871674
1172: 376e99ef
1173: 38f80362
1174: 371d1989
1175: 3945caff
1176: 393adce4
1177: 393adce4
1178: 3752be0e
1179: 3903f915
1180: 3714411f
1181: 393849f1
1182: 3acb633a
1183: 3ad641db
1184: 3ad641db
1185: 3877a84f
1186: 39ed86f4
1187: 37ae6b9a
1188: 3986f3bd
1189: 39861d54
1190: 39861d54
1191: 37876ba0
1192: 38b7afb5
1193: 370fbc7b
1194: 3958710b
1195: 3952d86a
1196: 3952d86a
1197: 37533c33
1198: 38f8aa7a
1199: 371cfb7e
1200: 3960f99c
1201: 3ad96cd1
1202: 3ad96cd1
1203: 3ad96cd1
1204: 38882353
1205: 3a00a74b
1206: 3805f578
1207: 39b88120
1208: 39b5ab29
1209: 39b5ab29
1210: 37c772f2
1211: 393a80ab
1212: 37c62bbd
1213: 399e1a13
1214: 399e1a13
1215: 399e1a13
1216: 37813e12
1217: 38e14a5a
1218: 37b643d2
1219: 3996d5ef
1220: 3abf6573
1221: 3adab548
1222: 3adab548
1223: 3887f1c2
1224: 3a2cffab
1225: 38a3ed7d
1226: 3a91c1b6
1227: 3a71d6bc
1228: 3a71d6bc
1229: 384485fe
1230: 39f33b7c
1231: 3888ed28
1232: 3a780070
1233: 3a4a5ec5
1234: 3a4a5ec5
1235: 386d2892
1236: 3a375c57
1237: 389512c3
1238: 3a9c03f1
1239: 39899834
1240: 3a9deea8
1241: 3adb3ca7
1242: 3ac6bd38
1243: 3ac6bd38
1244: 386607f2
1245: 3a1d515d
1246: 38e09284
1247: 3ab39e16
1248: 3a8b4cb4
1249: 3a8b4cb4
1250: 384c1855
1251: 3a05281f
1252: 38bbbcc9
1253: 3aca6d48
1254: 3a88387e
1255: 3a88387e
1256: 3892bf51
1257: 3a054a49
1258: 3860305f
1259: 3a5c5643
1260: 39e54398
1261: 37aa99d0
1262: 39dac449
1263: 3bfeb6b8
1264: 383b0923
1265: 3a22e16f
1266: 3bfeb6b8
1267: 38234247
1268: 3a1c900a
1269: 3bfeb6b8
1270: 382ca102
1271: 3a05f2eb
1272: 3bfeb6b8
1273: 39e54398
1274: 379e3682
1275: 3c430573
1276: 3cc8f39f
1278: 3bfeb6b8
1279: 3bfeb6b8
1280: 3ab33045
1281: 3aa7d90f
1282: 3a806f91
1283: 3a806f91
1285: 396b6d0c
1287: 3adb61c4
1289: 3adb61c4
1290: 3adb61c4
1291: 3a1a9bad
1292: 3b5ba231
1293: 3b0067b3
1294: 3b0067b3
output1: 3da4988d
